/* Copyright 2023 The TensorFlow Authors. All Rights Reserved.

Licensed under the Apache License, Version 2.0 (the "License");
you may not use this file except in compliance with the License.
You may obtain a copy of the License at

    http://www.apache.org/licenses/LICENSE-2.0

Unless required by applicable law or agreed to in writing, software
distributed under the License is distributed on an "AS IS" BASIS,
WITHOUT WARRANTIES OR CONDITIONS OF ANY KIND, either express or implied.
See the License for the specific language governing permissions and
limitations under the License.
==============================================================================*/

// Automatically created from a TensorFlow Lite flatbuffer using the command:
// xxd -i model.tflite > model.cc

// This is a standard TensorFlow Lite model file that has been converted into a
// C data array, so it can be easily compiled into a binary for devices that
// don't have a file system.

// See train/README.md for a full description of the creation process.

#include "model.h"



unsigned char mlp_soc_model_li_tflite[] = {
  0x1c, 0x00, 0x00, 0x00, 0x54, 0x46, 0x4c, 0x33, 0x14, 0x00, 0x20, 0x00,
  0x1c, 0x00, 0x18, 0x00, 0x14, 0x00, 0x10, 0x00, 0x0c, 0x00, 0x00, 0x00,
  0x08, 0x00, 0x04, 0x00, 0x14, 0x00, 0x00, 0x00, 0x1c, 0x00, 0x00, 0x00,
  0x98, 0x00, 0x00, 0x00, 0xf0, 0x00, 0x00, 0x00, 0x14, 0x05, 0x00, 0x00,
  0x24, 0x05, 0x00, 0x00, 0x4c, 0x0a, 0x00, 0x00, 0x03, 0x00, 0x00, 0x00,
  0x01, 0x00, 0x00, 0x00, 0x10, 0x00, 0x00, 0x00, 0x00, 0x00, 0x0a, 0x00,
  0x10, 0x00, 0x0c, 0x00, 0x08, 0x00, 0x04, 0x00, 0x0a, 0x00, 0x00, 0x00,
  0x0c, 0x00, 0x00, 0x00, 0x1c, 0x00, 0x00, 0x00, 0x3c, 0x00, 0x00, 0x00,
  0x0f, 0x00, 0x00, 0x00, 0x73, 0x65, 0x72, 0x76, 0x69, 0x6e, 0x67, 0x5f,
  0x64, 0x65, 0x66, 0x61, 0x75, 0x6c, 0x74, 0x00, 0x01, 0x00, 0x00, 0x00,
  0x04, 0x00, 0x00, 0x00, 0x90, 0xff, 0xff, 0xff, 0x09, 0x00, 0x00, 0x00,
  0x04, 0x00, 0x00, 0x00, 0x08, 0x00, 0x00, 0x00, 0x6f, 0x75, 0x74, 0x70,
  0x75, 0x74, 0x5f, 0x30, 0x00, 0x00, 0x00, 0x00, 0x01, 0x00, 0x00, 0x00,
  0x04, 0x00, 0x00, 0x00, 0x9a, 0xfb, 0xff, 0xff, 0x04, 0x00, 0x00, 0x00,
  0x0d, 0x00, 0x00, 0x00, 0x69, 0x6e, 0x70, 0x75, 0x74, 0x5f, 0x6c, 0x61,
  0x79, 0x65, 0x72, 0x5f, 0x33, 0x00, 0x00, 0x00, 0x02, 0x00, 0x00, 0x00,
  0x34, 0x00, 0x00, 0x00, 0x04, 0x00, 0x00, 0x00, 0xdc, 0xff, 0xff, 0xff,
  0x0c, 0x00, 0x00, 0x00, 0x04, 0x00, 0x00, 0x00, 0x13, 0x00, 0x00, 0x00,
  0x43, 0x4f, 0x4e, 0x56, 0x45, 0x52, 0x53, 0x49, 0x4f, 0x4e, 0x5f, 0x4d,
  0x45, 0x54, 0x41, 0x44, 0x41, 0x54, 0x41, 0x00, 0x08, 0x00, 0x0c, 0x00,
  0x08, 0x00, 0x04, 0x00, 0x08, 0x00, 0x00, 0x00, 0x0b, 0x00, 0x00, 0x00,
  0x04, 0x00, 0x00, 0x00, 0x13, 0x00, 0x00, 0x00, 0x6d, 0x69, 0x6e, 0x5f,
  0x72, 0x75, 0x6e, 0x74, 0x69, 0x6d, 0x65, 0x5f, 0x76, 0x65, 0x72, 0x73,
  0x69, 0x6f, 0x6e, 0x00, 0x0d, 0x00, 0x00, 0x00, 0x20, 0x04, 0x00, 0x00,
  0x18, 0x04, 0x00, 0x00, 0xe8, 0x03, 0x00, 0x00, 0xd0, 0x01, 0x00, 0x00,
  0xa0, 0x01, 0x00, 0x00, 0x8c, 0x01, 0x00, 0x00, 0x3c, 0x01, 0x00, 0x00,
  0xac, 0x00, 0x00, 0x00, 0xa4, 0x00, 0x00, 0x00, 0x9c, 0x00, 0x00, 0x00,
  0x94, 0x00, 0x00, 0x00, 0x74, 0x00, 0x00, 0x00, 0x04, 0x00, 0x00, 0x00,
  0x4a, 0xfc, 0xff, 0xff, 0x04, 0x00, 0x00, 0x00, 0x60, 0x00, 0x00, 0x00,
  0x10, 0x00, 0x00, 0x00, 0x00, 0x00, 0x00, 0x00, 0x08, 0x00, 0x0e, 0x00,
  0x08, 0x00, 0x04, 0x00, 0x08, 0x00, 0x00, 0x00, 0x10, 0x00, 0x00, 0x00,
  0x24, 0x00, 0x00, 0x00, 0x00, 0x00, 0x06, 0x00, 0x08, 0x00, 0x04, 0x00,
  0x06, 0x00, 0x00, 0x00, 0x04, 0x00, 0x00, 0x00, 0x00, 0x00, 0x00, 0x00,
  0x0c, 0x00, 0x18, 0x00, 0x14, 0x00, 0x10, 0x00, 0x0c, 0x00, 0x04, 0x00,
  0x0c, 0x00, 0x00, 0x00, 0x14, 0x61, 0x77, 0x97, 0x38, 0x0d, 0x60, 0xdc,
  0x02, 0x00, 0x00, 0x00, 0x02, 0x00, 0x00, 0x00, 0x04, 0x00, 0x00, 0x00,
  0x06, 0x00, 0x00, 0x00, 0x32, 0x2e, 0x31, 0x38, 0x2e, 0x30, 0x00, 0x00,
  0xb6, 0xfc, 0xff, 0xff, 0x04, 0x00, 0x00, 0x00, 0x10, 0x00, 0x00, 0x00,
  0x31, 0x2e, 0x35, 0x2e, 0x30, 0x00, 0x00, 0x00, 0x00, 0x00, 0x00, 0x00,
  0x00, 0x00, 0x00, 0x00, 0x90, 0xf7, 0xff, 0xff, 0x94, 0xf7, 0xff, 0xff,
  0x98, 0xf7, 0xff, 0xff, 0xde, 0xfc, 0xff, 0xff, 0x04, 0x00, 0x00, 0x00,
  0x80, 0x00, 0x00, 0x00, 0x00, 0x29, 0x30, 0x3f, 0x21, 0xb9, 0xe2, 0x3e,
  0x4c, 0xdf, 0xb0, 0x3e, 0x98, 0x5f, 0x47, 0xbd, 0x4e, 0x64, 0xc0, 0xbe,
  0x56, 0x4e, 0x12, 0xbf, 0x4e, 0x6a, 0xd4, 0x3e, 0x90, 0xbc, 0xac, 0x3d,
  0xb7, 0x42, 0xde, 0x3e, 0x17, 0x43, 0x2f, 0xbe, 0xf2, 0xbe, 0xb3, 0xbe,
  0xcb, 0x13, 0xe8, 0x3e, 0xcd, 0x5a, 0x52, 0x3f, 0xcb, 0xbe, 0x64, 0xbe,
  0x74, 0x0b, 0xf4, 0x3e, 0xc5, 0xbc, 0x64, 0xbe, 0x0c, 0x54, 0xeb, 0x3d,
  0xf4, 0x05, 0xc9, 0x3e, 0x9e, 0x2f, 0x0d, 0x3c, 0xb8, 0x5f, 0x87, 0x3e,
  0x40, 0x56, 0x0c, 0xbf, 0x5c, 0x44, 0xa6, 0xbd, 0x25, 0x58, 0xc8, 0xbb,
  0x3e, 0x99, 0xfa, 0x3e, 0xb0, 0x68, 0x70, 0xbd, 0xea, 0x60, 0xee, 0xbe,
  0x41, 0xc8, 0xc8, 0x3e, 0x09, 0xbc, 0x06, 0x3d, 0x93, 0xef, 0x01, 0xbd,
  0x18, 0x52, 0xb0, 0x3e, 0x5c, 0x6d, 0x0a, 0xbf, 0xea, 0x53, 0xfd, 0x3d,
  0x6a, 0xfd, 0xff, 0xff, 0x04, 0x00, 0x00, 0x00, 0x40, 0x00, 0x00, 0x00,
  0xd5, 0x09, 0x8f, 0xbd, 0xdb, 0x30, 0x90, 0xbc, 0x00, 0x00, 0x00, 0x00,
  0x53, 0x1c, 0x92, 0xbc, 0x51, 0x7d, 0x71, 0xbd, 0xf0, 0x7a, 0x41, 0x3e,
  0x16, 0x4a, 0x27, 0xbe, 0xbe, 0xce, 0x12, 0x3d, 0xc7, 0xa8, 0xa6, 0xbd,
  0x2f, 0x09, 0x24, 0xbe, 0x00, 0x00, 0x00, 0x00, 0x98, 0x12, 0x9f, 0xbe,
  0x00, 0x00, 0x00, 0x00, 0x1a, 0x4f, 0xbd, 0xbd, 0xc2, 0x59, 0xd6, 0xbd,
  0x5e, 0x83, 0xe4, 0xbc, 0xb6, 0xfd, 0xff, 0xff, 0x04, 0x00, 0x00, 0x00,
  0x04, 0x00, 0x00, 0x00, 0x8c, 0x7d, 0x1c, 0xbd, 0xc6, 0xfd, 0xff, 0xff,
  0x04, 0x00, 0x00, 0x00, 0x20, 0x00, 0x00, 0x00, 0x40, 0x65, 0x56, 0xbd,
  0x9e, 0xd3, 0x2f, 0xbd, 0x00, 0x00, 0x00, 0x00, 0x00, 0x00, 0x00, 0x00,
  0xa1, 0xa6, 0x92, 0x3d, 0x7f, 0xb1, 0x43, 0xbc, 0x2c, 0x40, 0xdc, 0xbb,
  0xf4, 0x7d, 0x51, 0xbd, 0xf2, 0xfd, 0xff, 0xff, 0x04, 0x00, 0x00, 0x00,
  0x00, 0x02, 0x00, 0x00, 0xf1, 0x28, 0x02, 0xbc, 0x3b, 0x99, 0x59, 0x3d,
  0xd8, 0xe8, 0x59, 0x3e, 0x44, 0x27, 0x2c, 0x3e, 0x0c, 0x4d, 0x12, 0x3f,
  0x1a, 0x5d, 0x4e, 0x3c, 0x66, 0xbc, 0xb4, 0x3d, 0x45, 0x73, 0x04, 0x3f,
  0x68, 0x71, 0xea, 0x3d, 0x88, 0xa8, 0x45, 0xbe, 0x90, 0x62, 0x8e, 0xbd,
  0x04, 0xe2, 0x22, 0x3f, 0x3c, 0x0d, 0x85, 0xbe, 0xad, 0xaf, 0xd0, 0x3e,
  0xca, 0x69, 0x4c, 0xbd, 0x9b, 0xd8, 0x80, 0xbd, 0x8c, 0x1e, 0x49, 0x3c,
  0xc8, 0x19, 0x22, 0xbe, 0x90, 0x64, 0x42, 0x3e, 0x77, 0x05, 0xbc, 0xbe,
  0x7e, 0x08, 0x11, 0xbe, 0x5b, 0x43, 0x94, 0xbe, 0xde, 0xca, 0x31, 0x3e,
  0x36, 0x2b, 0xc0, 0xbe, 0x00, 0x5f, 0x57, 0x3e, 0xfe, 0x4c, 0x2e, 0xbe,
  0x94, 0x74, 0xcc, 0xbe, 0x9b, 0x60, 0x91, 0x3d, 0x60, 0x45, 0x88, 0x3d,
  0x0c, 0xa5, 0xcf, 0x3e, 0xb8, 0xaf, 0xeb, 0x3e, 0x2e, 0x07, 0x99, 0x3d,
  0x00, 0xef, 0xf7, 0xbb, 0x50, 0xea, 0xd7, 0xbd, 0xc0, 0x94, 0xdc, 0xbe,
  0x98, 0x51, 0xa0, 0xbe, 0x14, 0xcf, 0xe8, 0x3e, 0x84, 0xc9, 0xe0, 0xbe,
  0xe8, 0x15, 0xa7, 0x3e, 0xf0, 0x38, 0xe7, 0xbe, 0xd0, 0x5b, 0xda, 0x3d,
  0x50, 0xb5, 0x09, 0xbe, 0x1c, 0xd5, 0xd3, 0x3e, 0x50, 0x9f, 0x9c, 0x3d,
  0xc0, 0xc9, 0x27, 0x3e, 0xb8, 0x1b, 0x93, 0xbe, 0x80, 0x6a, 0xf5, 0xbc,
  0x74, 0x81, 0x8b, 0x3e, 0xc0, 0xd1, 0xb3, 0x3c, 0x58, 0x0a, 0xfd, 0xbe,
  0xec, 0xdd, 0xab, 0x3e, 0x78, 0x71, 0x48, 0xbe, 0x00, 0x43, 0xa4, 0x3e,
  0xa0, 0x1b, 0xfc, 0xbe, 0x20, 0xce, 0x98, 0xbd, 0xd0, 0xee, 0x87, 0x3d,
  0x34, 0x7b, 0xf2, 0x3e, 0x00, 0xf3, 0xcb, 0xbd, 0xdc, 0xd4, 0xa1, 0x3e,
  0xf0, 0x4c, 0x6b, 0x3e, 0x20, 0x31, 0x94, 0xbd, 0xe8, 0x69, 0xe3, 0xbe,
  0xc0, 0x1a, 0x39, 0xbe, 0x48, 0x92, 0xfe, 0x3e, 0x42, 0xf0, 0xe3, 0xbd,
  0xeb, 0xbd, 0x3b, 0x3e, 0xe0, 0x98, 0xcd, 0xbd, 0xbd, 0x31, 0xe5, 0x3e,
  0xdd, 0x99, 0xb3, 0xbf, 0x3d, 0x0a, 0xa7, 0x3e, 0xe3, 0x16, 0x68, 0xc0,
  0x88, 0x89, 0xc0, 0x3e, 0x5c, 0x39, 0xc8, 0xbe, 0x09, 0x1d, 0x97, 0x3d,
  0x7c, 0x37, 0xe8, 0xbe, 0xe5, 0x2b, 0x89, 0xbe, 0xe8, 0x84, 0x31, 0xbe,
  0x97, 0x53, 0xff, 0xbe, 0x37, 0x4a, 0xa4, 0xbe, 0x38, 0xa1, 0xb9, 0xbe,
  0x29, 0x2d, 0xb6, 0x3e, 0xaf, 0x1a, 0x0f, 0x3f, 0xa0, 0x68, 0xb8, 0xbd,
  0xec, 0x28, 0xe9, 0x3e, 0x4b, 0x24, 0x52, 0x3f, 0x9c, 0x39, 0xce, 0xbe,
  0xef, 0x05, 0xeb, 0x3e, 0x77, 0x77, 0x35, 0x3e, 0x4a, 0x3c, 0x41, 0xbe,
  0x4f, 0x34, 0x25, 0xbf, 0x00, 0x3d, 0xb8, 0xbc, 0x95, 0xf8, 0xdf, 0x3e,
  0xf0, 0xcd, 0xb2, 0xbe, 0xc4, 0x62, 0x8e, 0xbe, 0x52, 0xc6, 0xbb, 0x3d,
  0x99, 0x7b, 0x04, 0x3e, 0x5b, 0xf4, 0x79, 0x3e, 0x54, 0xfe, 0xb0, 0x3e,
  0x48, 0x4c, 0x97, 0xbe, 0x7d, 0xd3, 0x98, 0x3e, 0xb8, 0xc7, 0x6f, 0x3e,
  0xe9, 0xfc, 0x26, 0xbf, 0x2c, 0x87, 0xdf, 0x3e, 0x81, 0xb3, 0x0f, 0x3f,
  0x02, 0x3d, 0x52, 0x3a, 0x78, 0xe8, 0xd2, 0xbd, 0x40, 0x88, 0x5e, 0xbd,
  0x65, 0xa0, 0x35, 0x3e, 0xc0, 0x0b, 0xca, 0xbd, 0x06, 0x74, 0x1f, 0x3f,
  0xfc, 0x73, 0xd4, 0xbe, 0x48, 0x28, 0x18, 0x3e, 0x58, 0x6d, 0xbe, 0x3d,
  0x18, 0xf6, 0xad, 0xbe, 0x40, 0x28, 0x4b, 0xbd, 0x0d, 0xf6, 0x9a, 0x3e,
  0x0a, 0xf2, 0xfd, 0x3d, 0x40, 0x17, 0x9a, 0xbe, 0xb8, 0xa8, 0xd5, 0x3e,
  0xaf, 0x66, 0xa9, 0xbe, 0xa4, 0x31, 0x07, 0xbf, 0x35, 0x4e, 0xb4, 0x3e,
  0x08, 0x20, 0x0c, 0x3e, 0x19, 0x30, 0xf7, 0xbe, 0xc8, 0x16, 0x98, 0xbe,
  0x21, 0x61, 0xfc, 0xbe, 0x14, 0x1d, 0xcb, 0xbe, 0x50, 0x09, 0xe5, 0xbd,
  0x00, 0x00, 0x06, 0x00, 0x08, 0x00, 0x04, 0x00, 0x06, 0x00, 0x00, 0x00,
  0x04, 0x00, 0x00, 0x00, 0x20, 0x00, 0x00, 0x00, 0x23, 0x81, 0x42, 0x3e,
  0xf0, 0x28, 0x31, 0xbf, 0x60, 0xc2, 0x32, 0x3f, 0x20, 0x7e, 0x90, 0x3e,
  0x7d, 0x7a, 0xb4, 0x3e, 0x9c, 0x8b, 0x32, 0x3f, 0x42, 0x24, 0x80, 0x3e,
  0x5d, 0x84, 0x91, 0xbe, 0xf0, 0xfa, 0xff, 0xff, 0xf4, 0xfa, 0xff, 0xff,
  0x0f, 0x00, 0x00, 0x00, 0x4d, 0x4c, 0x49, 0x52, 0x20, 0x43, 0x6f, 0x6e,
  0x76, 0x65, 0x72, 0x74, 0x65, 0x64, 0x2e, 0x00, 0x01, 0x00, 0x00, 0x00,
  0x14, 0x00, 0x00, 0x00, 0x00, 0x00, 0x0e, 0x00, 0x18, 0x00, 0x14, 0x00,
  0x10, 0x00, 0x0c, 0x00, 0x08, 0x00, 0x04, 0x00, 0x0e, 0x00, 0x00, 0x00,
  0x14, 0x00, 0x00, 0x00, 0x1c, 0x00, 0x00, 0x00, 0xd8, 0x00, 0x00, 0x00,
  0xdc, 0x00, 0x00, 0x00, 0xe0, 0x00, 0x00, 0x00, 0x04, 0x00, 0x00, 0x00,
  0x6d, 0x61, 0x69, 0x6e, 0x00, 0x00, 0x00, 0x00, 0x03, 0x00, 0x00, 0x00,
  0x80, 0x00, 0x00, 0x00, 0x38, 0x00, 0x00, 0x00, 0x04, 0x00, 0x00, 0x00,
  0x9a, 0xff, 0xff, 0xff, 0x10, 0x00, 0x00, 0x00, 0x00, 0x00, 0x00, 0x08,
  0x0c, 0x00, 0x00, 0x00, 0x10, 0x00, 0x00, 0x00, 0x6c, 0xfb, 0xff, 0xff,
  0x01, 0x00, 0x00, 0x00, 0x09, 0x00, 0x00, 0x00, 0x03, 0x00, 0x00, 0x00,
  0x08, 0x00, 0x00, 0x00, 0x01, 0x00, 0x00, 0x00, 0x04, 0x00, 0x00, 0x00,
  0xca, 0xff, 0xff, 0xff, 0x10, 0x00, 0x00, 0x00, 0x00, 0x00, 0x00, 0x08,
  0x10, 0x00, 0x00, 0x00, 0x14, 0x00, 0x00, 0x00, 0xba, 0xff, 0xff, 0xff,
  0x00, 0x00, 0x00, 0x01, 0x01, 0x00, 0x00, 0x00, 0x08, 0x00, 0x00, 0x00,
  0x03, 0x00, 0x00, 0x00, 0x07, 0x00, 0x00, 0x00, 0x02, 0x00, 0x00, 0x00,
  0x03, 0x00, 0x00, 0x00, 0x00, 0x00, 0x0e, 0x00, 0x16, 0x00, 0x00, 0x00,
  0x10, 0x00, 0x0c, 0x00, 0x0b, 0x00, 0x04, 0x00, 0x0e, 0x00, 0x00, 0x00,
  0x18, 0x00, 0x00, 0x00, 0x00, 0x00, 0x00, 0x08, 0x18, 0x00, 0x00, 0x00,
  0x1c, 0x00, 0x00, 0x00, 0x00, 0x00, 0x06, 0x00, 0x08, 0x00, 0x07, 0x00,
  0x06, 0x00, 0x00, 0x00, 0x00, 0x00, 0x00, 0x01, 0x01, 0x00, 0x00, 0x00,
  0x07, 0x00, 0x00, 0x00, 0x03, 0x00, 0x00, 0x00, 0x00, 0x00, 0x00, 0x00,
  0x06, 0x00, 0x00, 0x00, 0x05, 0x00, 0x00, 0x00, 0x01, 0x00, 0x00, 0x00,
  0x09, 0x00, 0x00, 0x00, 0x01, 0x00, 0x00, 0x00, 0x00, 0x00, 0x00, 0x00,
  0x0a, 0x00, 0x00, 0x00, 0xbc, 0x03, 0x00, 0x00, 0x64, 0x03, 0x00, 0x00,
  0x0c, 0x03, 0x00, 0x00, 0xac, 0x02, 0x00, 0x00, 0x50, 0x02, 0x00, 0x00,
  0xf4, 0x01, 0x00, 0x00, 0xa4, 0x01, 0x00, 0x00, 0x04, 0x01, 0x00, 0x00,
  0x60, 0x00, 0x00, 0x00, 0x04, 0x00, 0x00, 0x00, 0x82, 0xfc, 0xff, 0xff,
  0x00, 0x00, 0x00, 0x01, 0x14, 0x00, 0x00, 0x00, 0x1c, 0x00, 0x00, 0x00,
  0x1c, 0x00, 0x00, 0x00, 0x0a, 0x00, 0x00, 0x00, 0x34, 0x00, 0x00, 0x00,
  0x02, 0x00, 0x00, 0x00, 0xff, 0xff, 0xff, 0xff, 0x01, 0x00, 0x00, 0x00,
  0x6c, 0xfc, 0xff, 0xff, 0x1b, 0x00, 0x00, 0x00, 0x53, 0x74, 0x61, 0x74,
  0x65, 0x66, 0x75, 0x6c, 0x50, 0x61, 0x72, 0x74, 0x69, 0x74, 0x69, 0x6f,
  0x6e, 0x65, 0x64, 0x43, 0x61, 0x6c, 0x6c, 0x5f, 0x31, 0x3a, 0x30, 0x00,
  0x02, 0x00, 0x00, 0x00, 0x01, 0x00, 0x00, 0x00, 0x01, 0x00, 0x00, 0x00,
  0xda, 0xfc, 0xff, 0xff, 0x00, 0x00, 0x00, 0x01, 0x14, 0x00, 0x00, 0x00,
  0x1c, 0x00, 0x00, 0x00, 0x1c, 0x00, 0x00, 0x00, 0x09, 0x00, 0x00, 0x00,
  0x7c, 0x00, 0x00, 0x00, 0x02, 0x00, 0x00, 0x00, 0xff, 0xff, 0xff, 0xff,
  0x08, 0x00, 0x00, 0x00, 0xc4, 0xfc, 0xff, 0xff, 0x61, 0x00, 0x00, 0x00,
  0x73, 0x65, 0x71, 0x75, 0x65, 0x6e, 0x74, 0x69, 0x61, 0x6c, 0x5f, 0x33,
  0x5f, 0x31, 0x2f, 0x64, 0x65, 0x6e, 0x73, 0x65, 0x5f, 0x31, 0x30, 0x5f,
  0x31, 0x2f, 0x4d, 0x61, 0x74, 0x4d, 0x75, 0x6c, 0x3b, 0x73, 0x65, 0x71,
  0x75, 0x65, 0x6e, 0x74, 0x69, 0x61, 0x6c, 0x5f, 0x33, 0x5f, 0x31, 0x2f,
  0x64, 0x65, 0x6e, 0x73, 0x65, 0x5f, 0x31, 0x30, 0x5f, 0x31, 0x2f, 0x52,
  0x65, 0x6c, 0x75, 0x3b, 0x73, 0x65, 0x71, 0x75, 0x65, 0x6e, 0x74, 0x69,
  0x61, 0x6c, 0x5f, 0x33, 0x5f, 0x31, 0x2f, 0x64, 0x65, 0x6e, 0x73, 0x65,
  0x5f, 0x31, 0x30, 0x5f, 0x31, 0x2f, 0x42, 0x69, 0x61, 0x73, 0x41, 0x64,
  0x64, 0x00, 0x00, 0x00, 0x02, 0x00, 0x00, 0x00, 0x01, 0x00, 0x00, 0x00,
  0x08, 0x00, 0x00, 0x00, 0x7a, 0xfd, 0xff, 0xff, 0x00, 0x00, 0x00, 0x01,
  0x14, 0x00, 0x00, 0x00, 0x1c, 0x00, 0x00, 0x00, 0x1c, 0x00, 0x00, 0x00,
  0x08, 0x00, 0x00, 0x00, 0x78, 0x00, 0x00, 0x00, 0x02, 0x00, 0x00, 0x00,
  0xff, 0xff, 0xff, 0xff, 0x10, 0x00, 0x00, 0x00, 0x64, 0xfd, 0xff, 0xff,
  0x5e, 0x00, 0x00, 0x00, 0x73, 0x65, 0x71, 0x75, 0x65, 0x6e, 0x74, 0x69,
  0x61, 0x6c, 0x5f, 0x33, 0x5f, 0x31, 0x2f, 0x64, 0x65, 0x6e, 0x73, 0x65,
  0x5f, 0x39, 0x5f, 0x31, 0x2f, 0x4d, 0x61, 0x74, 0x4d, 0x75, 0x6c, 0x3b,
  0x73, 0x65, 0x71, 0x75, 0x65, 0x6e, 0x74, 0x69, 0x61, 0x6c, 0x5f, 0x33,
  0x5f, 0x31, 0x2f, 0x64, 0x65, 0x6e, 0x73, 0x65, 0x5f, 0x39, 0x5f, 0x31,
  0x2f, 0x52, 0x65, 0x6c, 0x75, 0x3b, 0x73, 0x65, 0x71, 0x75, 0x65, 0x6e,
  0x74, 0x69, 0x61, 0x6c, 0x5f, 0x33, 0x5f, 0x31, 0x2f, 0x64, 0x65, 0x6e,
  0x73, 0x65, 0x5f, 0x39, 0x5f, 0x31, 0x2f, 0x42, 0x69, 0x61, 0x73, 0x41,
  0x64, 0x64, 0x00, 0x00, 0x02, 0x00, 0x00, 0x00, 0x01, 0x00, 0x00, 0x00,
  0x10, 0x00, 0x00, 0x00, 0x6a, 0xfe, 0xff, 0xff, 0x00, 0x00, 0x00, 0x01,
  0x10, 0x00, 0x00, 0x00, 0x10, 0x00, 0x00, 0x00, 0x07, 0x00, 0x00, 0x00,
  0x2c, 0x00, 0x00, 0x00, 0xf0, 0xfd, 0xff, 0xff, 0x1f, 0x00, 0x00, 0x00,
  0x73, 0x65, 0x71, 0x75, 0x65, 0x6e, 0x74, 0x69, 0x61, 0x6c, 0x5f, 0x33,
  0x5f, 0x31, 0x2f, 0x64, 0x65, 0x6e, 0x73, 0x65, 0x5f, 0x39, 0x5f, 0x31,
  0x2f, 0x4d, 0x61, 0x74, 0x4d, 0x75, 0x6c, 0x00, 0x02, 0x00, 0x00, 0x00,
  0x10, 0x00, 0x00, 0x00, 0x02, 0x00, 0x00, 0x00, 0xb6, 0xfe, 0xff, 0xff,
  0x00, 0x00, 0x00, 0x01, 0x10, 0x00, 0x00, 0x00, 0x10, 0x00, 0x00, 0x00,
  0x06, 0x00, 0x00, 0x00, 0x3c, 0x00, 0x00, 0x00, 0x3c, 0xfe, 0xff, 0xff,
  0x2f, 0x00, 0x00, 0x00, 0x73, 0x65, 0x71, 0x75, 0x65, 0x6e, 0x74, 0x69,
  0x61, 0x6c, 0x5f, 0x33, 0x5f, 0x31, 0x2f, 0x64, 0x65, 0x6e, 0x73, 0x65,
  0x5f, 0x39, 0x5f, 0x31, 0x2f, 0x42, 0x69, 0x61, 0x73, 0x41, 0x64, 0x64,
  0x2f, 0x52, 0x65, 0x61, 0x64, 0x56, 0x61, 0x72, 0x69, 0x61, 0x62, 0x6c,
  0x65, 0x4f, 0x70, 0x00, 0x01, 0x00, 0x00, 0x00, 0x10, 0x00, 0x00, 0x00,
  0x0e, 0xff, 0xff, 0xff, 0x00, 0x00, 0x00, 0x01, 0x10, 0x00, 0x00, 0x00,
  0x10, 0x00, 0x00, 0x00, 0x05, 0x00, 0x00, 0x00, 0x3c, 0x00, 0x00, 0x00,
  0x94, 0xfe, 0xff, 0xff, 0x2c, 0x00, 0x00, 0x00, 0x73, 0x65, 0x71, 0x75,
  0x65, 0x6e, 0x74, 0x69, 0x61, 0x6c, 0x5f, 0x33, 0x5f, 0x31, 0x2f, 0x64,
  0x65, 0x6e, 0x73, 0x65, 0x5f, 0x31, 0x31, 0x5f, 0x31, 0x2f, 0x41, 0x64,
  0x64, 0x2f, 0x52, 0x65, 0x61, 0x64, 0x56, 0x61, 0x72, 0x69, 0x61, 0x62,
  0x6c, 0x65, 0x4f, 0x70, 0x00, 0x00, 0x00, 0x00, 0x01, 0x00, 0x00, 0x00,
  0x01, 0x00, 0x00, 0x00, 0x66, 0xff, 0xff, 0xff, 0x00, 0x00, 0x00, 0x01,
  0x10, 0x00, 0x00, 0x00, 0x10, 0x00, 0x00, 0x00, 0x04, 0x00, 0x00, 0x00,
  0x40, 0x00, 0x00, 0x00, 0xec, 0xfe, 0xff, 0xff, 0x30, 0x00, 0x00, 0x00,
  0x73, 0x65, 0x71, 0x75, 0x65, 0x6e, 0x74, 0x69, 0x61, 0x6c, 0x5f, 0x33,
  0x5f, 0x31, 0x2f, 0x64, 0x65, 0x6e, 0x73, 0x65, 0x5f, 0x31, 0x30, 0x5f,
  0x31, 0x2f, 0x42, 0x69, 0x61, 0x73, 0x41, 0x64, 0x64, 0x2f, 0x52, 0x65,
  0x61, 0x64, 0x56, 0x61, 0x72, 0x69, 0x61, 0x62, 0x6c, 0x65, 0x4f, 0x70,
  0x00, 0x00, 0x00, 0x00, 0x01, 0x00, 0x00, 0x00, 0x08, 0x00, 0x00, 0x00,
  0xc2, 0xff, 0xff, 0xff, 0x00, 0x00, 0x00, 0x01, 0x10, 0x00, 0x00, 0x00,
  0x10, 0x00, 0x00, 0x00, 0x03, 0x00, 0x00, 0x00, 0x1c, 0x00, 0x00, 0x00,
  0x48, 0xff, 0xff, 0xff, 0x0f, 0x00, 0x00, 0x00, 0x61, 0x72, 0x69, 0x74,
  0x68, 0x2e, 0x63, 0x6f, 0x6e, 0x73, 0x74, 0x61, 0x6e, 0x74, 0x31, 0x00,
  0x02, 0x00, 0x00, 0x00, 0x08, 0x00, 0x00, 0x00, 0x10, 0x00, 0x00, 0x00,
  0x00, 0x00, 0x16, 0x00, 0x18, 0x00, 0x14, 0x00, 0x00, 0x00, 0x10, 0x00,
  0x0c, 0x00, 0x08, 0x00, 0x00, 0x00, 0x00, 0x00, 0x00, 0x00, 0x07, 0x00,
  0x16, 0x00, 0x00, 0x00, 0x00, 0x00, 0x00, 0x01, 0x10, 0x00, 0x00, 0x00,
  0x10, 0x00, 0x00, 0x00, 0x02, 0x00, 0x00, 0x00, 0x1c, 0x00, 0x00, 0x00,
  0x9c, 0xff, 0xff, 0xff, 0x0e, 0x00, 0x00, 0x00, 0x61, 0x72, 0x69, 0x74,
  0x68, 0x2e, 0x63, 0x6f, 0x6e, 0x73, 0x74, 0x61, 0x6e, 0x74, 0x00, 0x00,
  0x02, 0x00, 0x00, 0x00, 0x01, 0x00, 0x00, 0x00, 0x08, 0x00, 0x00, 0x00,
  0x00, 0x00, 0x16, 0x00, 0x1c, 0x00, 0x18, 0x00, 0x00, 0x00, 0x14, 0x00,
  0x10, 0x00, 0x0c, 0x00, 0x00, 0x00, 0x00, 0x00, 0x08, 0x00, 0x07, 0x00,
  0x16, 0x00, 0x00, 0x00, 0x00, 0x00, 0x00, 0x01, 0x14, 0x00, 0x00, 0x00,
  0x20, 0x00, 0x00, 0x00, 0x20, 0x00, 0x00, 0x00, 0x01, 0x00, 0x00, 0x00,
  0x3c, 0x00, 0x00, 0x00, 0x02, 0x00, 0x00, 0x00, 0xff, 0xff, 0xff, 0xff,
  0x02, 0x00, 0x00, 0x00, 0x04, 0x00, 0x04, 0x00, 0x04, 0x00, 0x00, 0x00,
  0x1f, 0x00, 0x00, 0x00, 0x73, 0x65, 0x72, 0x76, 0x69, 0x6e, 0x67, 0x5f,
  0x64, 0x65, 0x66, 0x61, 0x75, 0x6c, 0x74, 0x5f, 0x69, 0x6e, 0x70, 0x75,
  0x74, 0x5f, 0x6c, 0x61, 0x79, 0x65, 0x72, 0x5f, 0x33, 0x3a, 0x30, 0x00,
  0x02, 0x00, 0x00, 0x00, 0x01, 0x00, 0x00, 0x00, 0x02, 0x00, 0x00, 0x00,
  0x01, 0x00, 0x00, 0x00, 0x10, 0x00, 0x00, 0x00, 0x0c, 0x00, 0x0c, 0x00,
  0x0b, 0x00, 0x00, 0x00, 0x00, 0x00, 0x04, 0x00, 0x0c, 0x00, 0x00, 0x00,
  0x09, 0x00, 0x00, 0x00, 0x00, 0x00, 0x00, 0x09
};
unsigned int mlp_soc_model_li_tflite_len = 2720;

unsigned char mlp_soc_model_lfp_tflite[] = {
  0x1c, 0x00, 0x00, 0x00, 0x54, 0x46, 0x4c, 0x33, 0x14, 0x00, 0x20, 0x00,
  0x1c, 0x00, 0x18, 0x00, 0x14, 0x00, 0x10, 0x00, 0x0c, 0x00, 0x00, 0x00,
  0x08, 0x00, 0x04, 0x00, 0x14, 0x00, 0x00, 0x00, 0x1c, 0x00, 0x00, 0x00,
  0x98, 0x00, 0x00, 0x00, 0xf0, 0x00, 0x00, 0x00, 0x14, 0x05, 0x00, 0x00,
  0x24, 0x05, 0x00, 0x00, 0x4c, 0x0a, 0x00, 0x00, 0x03, 0x00, 0x00, 0x00,
  0x01, 0x00, 0x00, 0x00, 0x10, 0x00, 0x00, 0x00, 0x00, 0x00, 0x0a, 0x00,
  0x10, 0x00, 0x0c, 0x00, 0x08, 0x00, 0x04, 0x00, 0x0a, 0x00, 0x00, 0x00,
  0x0c, 0x00, 0x00, 0x00, 0x1c, 0x00, 0x00, 0x00, 0x3c, 0x00, 0x00, 0x00,
  0x0f, 0x00, 0x00, 0x00, 0x73, 0x65, 0x72, 0x76, 0x69, 0x6e, 0x67, 0x5f,
  0x64, 0x65, 0x66, 0x61, 0x75, 0x6c, 0x74, 0x00, 0x01, 0x00, 0x00, 0x00,
  0x04, 0x00, 0x00, 0x00, 0x90, 0xff, 0xff, 0xff, 0x09, 0x00, 0x00, 0x00,
  0x04, 0x00, 0x00, 0x00, 0x08, 0x00, 0x00, 0x00, 0x6f, 0x75, 0x74, 0x70,
  0x75, 0x74, 0x5f, 0x30, 0x00, 0x00, 0x00, 0x00, 0x01, 0x00, 0x00, 0x00,
  0x04, 0x00, 0x00, 0x00, 0x9a, 0xfb, 0xff, 0xff, 0x04, 0x00, 0x00, 0x00,
  0x0d, 0x00, 0x00, 0x00, 0x69, 0x6e, 0x70, 0x75, 0x74, 0x5f, 0x6c, 0x61,
  0x79, 0x65, 0x72, 0x5f, 0x33, 0x00, 0x00, 0x00, 0x02, 0x00, 0x00, 0x00,
  0x34, 0x00, 0x00, 0x00, 0x04, 0x00, 0x00, 0x00, 0xdc, 0xff, 0xff, 0xff,
  0x0c, 0x00, 0x00, 0x00, 0x04, 0x00, 0x00, 0x00, 0x13, 0x00, 0x00, 0x00,
  0x43, 0x4f, 0x4e, 0x56, 0x45, 0x52, 0x53, 0x49, 0x4f, 0x4e, 0x5f, 0x4d,
  0x45, 0x54, 0x41, 0x44, 0x41, 0x54, 0x41, 0x00, 0x08, 0x00, 0x0c, 0x00,
  0x08, 0x00, 0x04, 0x00, 0x08, 0x00, 0x00, 0x00, 0x0b, 0x00, 0x00, 0x00,
  0x04, 0x00, 0x00, 0x00, 0x13, 0x00, 0x00, 0x00, 0x6d, 0x69, 0x6e, 0x5f,
  0x72, 0x75, 0x6e, 0x74, 0x69, 0x6d, 0x65, 0x5f, 0x76, 0x65, 0x72, 0x73,
  0x69, 0x6f, 0x6e, 0x00, 0x0d, 0x00, 0x00, 0x00, 0x20, 0x04, 0x00, 0x00,
  0x18, 0x04, 0x00, 0x00, 0xe8, 0x03, 0x00, 0x00, 0xd0, 0x01, 0x00, 0x00,
  0xa0, 0x01, 0x00, 0x00, 0x8c, 0x01, 0x00, 0x00, 0x3c, 0x01, 0x00, 0x00,
  0xac, 0x00, 0x00, 0x00, 0xa4, 0x00, 0x00, 0x00, 0x9c, 0x00, 0x00, 0x00,
  0x94, 0x00, 0x00, 0x00, 0x74, 0x00, 0x00, 0x00, 0x04, 0x00, 0x00, 0x00,
  0x4a, 0xfc, 0xff, 0xff, 0x04, 0x00, 0x00, 0x00, 0x60, 0x00, 0x00, 0x00,
  0x10, 0x00, 0x00, 0x00, 0x00, 0x00, 0x00, 0x00, 0x08, 0x00, 0x0e, 0x00,
  0x08, 0x00, 0x04, 0x00, 0x08, 0x00, 0x00, 0x00, 0x10, 0x00, 0x00, 0x00,
  0x24, 0x00, 0x00, 0x00, 0x00, 0x00, 0x06, 0x00, 0x08, 0x00, 0x04, 0x00,
  0x06, 0x00, 0x00, 0x00, 0x04, 0x00, 0x00, 0x00, 0x00, 0x00, 0x00, 0x00,
  0x0c, 0x00, 0x18, 0x00, 0x14, 0x00, 0x10, 0x00, 0x0c, 0x00, 0x04, 0x00,
  0x0c, 0x00, 0x00, 0x00, 0x14, 0x61, 0x77, 0x97, 0x38, 0x0d, 0x60, 0xdc,
  0x02, 0x00, 0x00, 0x00, 0x02, 0x00, 0x00, 0x00, 0x04, 0x00, 0x00, 0x00,
  0x06, 0x00, 0x00, 0x00, 0x32, 0x2e, 0x31, 0x38, 0x2e, 0x30, 0x00, 0x00,
  0xb6, 0xfc, 0xff, 0xff, 0x04, 0x00, 0x00, 0x00, 0x10, 0x00, 0x00, 0x00,
  0x31, 0x2e, 0x35, 0x2e, 0x30, 0x00, 0x00, 0x00, 0x00, 0x00, 0x00, 0x00,
  0x00, 0x00, 0x00, 0x00, 0x90, 0xf7, 0xff, 0xff, 0x94, 0xf7, 0xff, 0xff,
  0x98, 0xf7, 0xff, 0xff, 0xde, 0xfc, 0xff, 0xff, 0x04, 0x00, 0x00, 0x00,
  0x80, 0x00, 0x00, 0x00, 0x00, 0x29, 0x30, 0x3f, 0x21, 0xb9, 0xe2, 0x3e,
  0x4c, 0xdf, 0xb0, 0x3e, 0x98, 0x5f, 0x47, 0xbd, 0x4e, 0x64, 0xc0, 0xbe,
  0x56, 0x4e, 0x12, 0xbf, 0x4e, 0x6a, 0xd4, 0x3e, 0x90, 0xbc, 0xac, 0x3d,
  0xb7, 0x42, 0xde, 0x3e, 0x17, 0x43, 0x2f, 0xbe, 0xf2, 0xbe, 0xb3, 0xbe,
  0xcb, 0x13, 0xe8, 0x3e, 0xcd, 0x5a, 0x52, 0x3f, 0xcb, 0xbe, 0x64, 0xbe,
  0x74, 0x0b, 0xf4, 0x3e, 0xc5, 0xbc, 0x64, 0xbe, 0x0c, 0x54, 0xeb, 0x3d,
  0xf4, 0x05, 0xc9, 0x3e, 0x9e, 0x2f, 0x0d, 0x3c, 0xb8, 0x5f, 0x87, 0x3e,
  0x40, 0x56, 0x0c, 0xbf, 0x5c, 0x44, 0xa6, 0xbd, 0x25, 0x58, 0xc8, 0xbb,
  0x3e, 0x99, 0xfa, 0x3e, 0xb0, 0x68, 0x70, 0xbd, 0xea, 0x60, 0xee, 0xbe,
  0x41, 0xc8, 0xc8, 0x3e, 0x09, 0xbc, 0x06, 0x3d, 0x93, 0xef, 0x01, 0xbd,
  0x18, 0x52, 0xb0, 0x3e, 0x5c, 0x6d, 0x0a, 0xbf, 0xea, 0x53, 0xfd, 0x3d,
  0x6a, 0xfd, 0xff, 0xff, 0x04, 0x00, 0x00, 0x00, 0x40, 0x00, 0x00, 0x00,
  0xd5, 0x09, 0x8f, 0xbd, 0xdb, 0x30, 0x90, 0xbc, 0x00, 0x00, 0x00, 0x00,
  0x53, 0x1c, 0x92, 0xbc, 0x51, 0x7d, 0x71, 0xbd, 0xf0, 0x7a, 0x41, 0x3e,
  0x16, 0x4a, 0x27, 0xbe, 0xbe, 0xce, 0x12, 0x3d, 0xc7, 0xa8, 0xa6, 0xbd,
  0x2f, 0x09, 0x24, 0xbe, 0x00, 0x00, 0x00, 0x00, 0x98, 0x12, 0x9f, 0xbe,
  0x00, 0x00, 0x00, 0x00, 0x1a, 0x4f, 0xbd, 0xbd, 0xc2, 0x59, 0xd6, 0xbd,
  0x5e, 0x83, 0xe4, 0xbc, 0xb6, 0xfd, 0xff, 0xff, 0x04, 0x00, 0x00, 0x00,
  0x04, 0x00, 0x00, 0x00, 0x8c, 0x7d, 0x1c, 0xbd, 0xc6, 0xfd, 0xff, 0xff,
  0x04, 0x00, 0x00, 0x00, 0x20, 0x00, 0x00, 0x00, 0x40, 0x65, 0x56, 0xbd,
  0x9e, 0xd3, 0x2f, 0xbd, 0x00, 0x00, 0x00, 0x00, 0x00, 0x00, 0x00, 0x00,
  0xa1, 0xa6, 0x92, 0x3d, 0x7f, 0xb1, 0x43, 0xbc, 0x2c, 0x40, 0xdc, 0xbb,
  0xf4, 0x7d, 0x51, 0xbd, 0xf2, 0xfd, 0xff, 0xff, 0x04, 0x00, 0x00, 0x00,
  0x00, 0x02, 0x00, 0x00, 0xf1, 0x28, 0x02, 0xbc, 0x3b, 0x99, 0x59, 0x3d,
  0xd8, 0xe8, 0x59, 0x3e, 0x44, 0x27, 0x2c, 0x3e, 0x0c, 0x4d, 0x12, 0x3f,
  0x1a, 0x5d, 0x4e, 0x3c, 0x66, 0xbc, 0xb4, 0x3d, 0x45, 0x73, 0x04, 0x3f,
  0x68, 0x71, 0xea, 0x3d, 0x88, 0xa8, 0x45, 0xbe, 0x90, 0x62, 0x8e, 0xbd,
  0x04, 0xe2, 0x22, 0x3f, 0x3c, 0x0d, 0x85, 0xbe, 0xad, 0xaf, 0xd0, 0x3e,
  0xca, 0x69, 0x4c, 0xbd, 0x9b, 0xd8, 0x80, 0xbd, 0x8c, 0x1e, 0x49, 0x3c,
  0xc8, 0x19, 0x22, 0xbe, 0x90, 0x64, 0x42, 0x3e, 0x77, 0x05, 0xbc, 0xbe,
  0x7e, 0x08, 0x11, 0xbe, 0x5b, 0x43, 0x94, 0xbe, 0xde, 0xca, 0x31, 0x3e,
  0x36, 0x2b, 0xc0, 0xbe, 0x00, 0x5f, 0x57, 0x3e, 0xfe, 0x4c, 0x2e, 0xbe,
  0x94, 0x74, 0xcc, 0xbe, 0x9b, 0x60, 0x91, 0x3d, 0x60, 0x45, 0x88, 0x3d,
  0x0c, 0xa5, 0xcf, 0x3e, 0xb8, 0xaf, 0xeb, 0x3e, 0x2e, 0x07, 0x99, 0x3d,
  0x00, 0xef, 0xf7, 0xbb, 0x50, 0xea, 0xd7, 0xbd, 0xc0, 0x94, 0xdc, 0xbe,
  0x98, 0x51, 0xa0, 0xbe, 0x14, 0xcf, 0xe8, 0x3e, 0x84, 0xc9, 0xe0, 0xbe,
  0xe8, 0x15, 0xa7, 0x3e, 0xf0, 0x38, 0xe7, 0xbe, 0xd0, 0x5b, 0xda, 0x3d,
  0x50, 0xb5, 0x09, 0xbe, 0x1c, 0xd5, 0xd3, 0x3e, 0x50, 0x9f, 0x9c, 0x3d,
  0xc0, 0xc9, 0x27, 0x3e, 0xb8, 0x1b, 0x93, 0xbe, 0x80, 0x6a, 0xf5, 0xbc,
  0x74, 0x81, 0x8b, 0x3e, 0xc0, 0xd1, 0xb3, 0x3c, 0x58, 0x0a, 0xfd, 0xbe,
  0xec, 0xdd, 0xab, 0x3e, 0x78, 0x71, 0x48, 0xbe, 0x00, 0x43, 0xa4, 0x3e,
  0xa0, 0x1b, 0xfc, 0xbe, 0x20, 0xce, 0x98, 0xbd, 0xd0, 0xee, 0x87, 0x3d,
  0x34, 0x7b, 0xf2, 0x3e, 0x00, 0xf3, 0xcb, 0xbd, 0xdc, 0xd4, 0xa1, 0x3e,
  0xf0, 0x4c, 0x6b, 0x3e, 0x20, 0x31, 0x94, 0xbd, 0xe8, 0x69, 0xe3, 0xbe,
  0xc0, 0x1a, 0x39, 0xbe, 0x48, 0x92, 0xfe, 0x3e, 0x42, 0xf0, 0xe3, 0xbd,
  0xeb, 0xbd, 0x3b, 0x3e, 0xe0, 0x98, 0xcd, 0xbd, 0xbd, 0x31, 0xe5, 0x3e,
  0xdd, 0x99, 0xb3, 0xbf, 0x3d, 0x0a, 0xa7, 0x3e, 0xe3, 0x16, 0x68, 0xc0,
  0x88, 0x89, 0xc0, 0x3e, 0x5c, 0x39, 0xc8, 0xbe, 0x09, 0x1d, 0x97, 0x3d,
  0x7c, 0x37, 0xe8, 0xbe, 0xe5, 0x2b, 0x89, 0xbe, 0xe8, 0x84, 0x31, 0xbe,
  0x97, 0x53, 0xff, 0xbe, 0x37, 0x4a, 0xa4, 0xbe, 0x38, 0xa1, 0xb9, 0xbe,
  0x29, 0x2d, 0xb6, 0x3e, 0xaf, 0x1a, 0x0f, 0x3f, 0xa0, 0x68, 0xb8, 0xbd,
  0xec, 0x28, 0xe9, 0x3e, 0x4b, 0x24, 0x52, 0x3f, 0x9c, 0x39, 0xce, 0xbe,
  0xef, 0x05, 0xeb, 0x3e, 0x77, 0x77, 0x35, 0x3e, 0x4a, 0x3c, 0x41, 0xbe,
  0x4f, 0x34, 0x25, 0xbf, 0x00, 0x3d, 0xb8, 0xbc, 0x95, 0xf8, 0xdf, 0x3e,
  0xf0, 0xcd, 0xb2, 0xbe, 0xc4, 0x62, 0x8e, 0xbe, 0x52, 0xc6, 0xbb, 0x3d,
  0x99, 0x7b, 0x04, 0x3e, 0x5b, 0xf4, 0x79, 0x3e, 0x54, 0xfe, 0xb0, 0x3e,
  0x48, 0x4c, 0x97, 0xbe, 0x7d, 0xd3, 0x98, 0x3e, 0xb8, 0xc7, 0x6f, 0x3e,
  0xe9, 0xfc, 0x26, 0xbf, 0x2c, 0x87, 0xdf, 0x3e, 0x81, 0xb3, 0x0f, 0x3f,
  0x02, 0x3d, 0x52, 0x3a, 0x78, 0xe8, 0xd2, 0xbd, 0x40, 0x88, 0x5e, 0xbd,
  0x65, 0xa0, 0x35, 0x3e, 0xc0, 0x0b, 0xca, 0xbd, 0x06, 0x74, 0x1f, 0x3f,
  0xfc, 0x73, 0xd4, 0xbe, 0x48, 0x28, 0x18, 0x3e, 0x58, 0x6d, 0xbe, 0x3d,
  0x18, 0xf6, 0xad, 0xbe, 0x40, 0x28, 0x4b, 0xbd, 0x0d, 0xf6, 0x9a, 0x3e,
  0x0a, 0xf2, 0xfd, 0x3d, 0x40, 0x17, 0x9a, 0xbe, 0xb8, 0xa8, 0xd5, 0x3e,
  0xaf, 0x66, 0xa9, 0xbe, 0xa4, 0x31, 0x07, 0xbf, 0x35, 0x4e, 0xb4, 0x3e,
  0x08, 0x20, 0x0c, 0x3e, 0x19, 0x30, 0xf7, 0xbe, 0xc8, 0x16, 0x98, 0xbe,
  0x21, 0x61, 0xfc, 0xbe, 0x14, 0x1d, 0xcb, 0xbe, 0x50, 0x09, 0xe5, 0xbd,
  0x00, 0x00, 0x06, 0x00, 0x08, 0x00, 0x04, 0x00, 0x06, 0x00, 0x00, 0x00,
  0x04, 0x00, 0x00, 0x00, 0x20, 0x00, 0x00, 0x00, 0x23, 0x81, 0x42, 0x3e,
  0xf0, 0x28, 0x31, 0xbf, 0x60, 0xc2, 0x32, 0x3f, 0x20, 0x7e, 0x90, 0x3e,
  0x7d, 0x7a, 0xb4, 0x3e, 0x9c, 0x8b, 0x32, 0x3f, 0x42, 0x24, 0x80, 0x3e,
  0x5d, 0x84, 0x91, 0xbe, 0xf0, 0xfa, 0xff, 0xff, 0xf4, 0xfa, 0xff, 0xff,
  0x0f, 0x00, 0x00, 0x00, 0x4d, 0x4c, 0x49, 0x52, 0x20, 0x43, 0x6f, 0x6e,
  0x76, 0x65, 0x72, 0x74, 0x65, 0x64, 0x2e, 0x00, 0x01, 0x00, 0x00, 0x00,
  0x14, 0x00, 0x00, 0x00, 0x00, 0x00, 0x0e, 0x00, 0x18, 0x00, 0x14, 0x00,
  0x10, 0x00, 0x0c, 0x00, 0x08, 0x00, 0x04, 0x00, 0x0e, 0x00, 0x00, 0x00,
  0x14, 0x00, 0x00, 0x00, 0x1c, 0x00, 0x00, 0x00, 0xd8, 0x00, 0x00, 0x00,
  0xdc, 0x00, 0x00, 0x00, 0xe0, 0x00, 0x00, 0x00, 0x04, 0x00, 0x00, 0x00,
  0x6d, 0x61, 0x69, 0x6e, 0x00, 0x00, 0x00, 0x00, 0x03, 0x00, 0x00, 0x00,
  0x80, 0x00, 0x00, 0x00, 0x38, 0x00, 0x00, 0x00, 0x04, 0x00, 0x00, 0x00,
  0x9a, 0xff, 0xff, 0xff, 0x10, 0x00, 0x00, 0x00, 0x00, 0x00, 0x00, 0x08,
  0x0c, 0x00, 0x00, 0x00, 0x10, 0x00, 0x00, 0x00, 0x6c, 0xfb, 0xff, 0xff,
  0x01, 0x00, 0x00, 0x00, 0x09, 0x00, 0x00, 0x00, 0x03, 0x00, 0x00, 0x00,
  0x08, 0x00, 0x00, 0x00, 0x01, 0x00, 0x00, 0x00, 0x04, 0x00, 0x00, 0x00,
  0xca, 0xff, 0xff, 0xff, 0x10, 0x00, 0x00, 0x00, 0x00, 0x00, 0x00, 0x08,
  0x10, 0x00, 0x00, 0x00, 0x14, 0x00, 0x00, 0x00, 0xba, 0xff, 0xff, 0xff,
  0x00, 0x00, 0x00, 0x01, 0x01, 0x00, 0x00, 0x00, 0x08, 0x00, 0x00, 0x00,
  0x03, 0x00, 0x00, 0x00, 0x07, 0x00, 0x00, 0x00, 0x02, 0x00, 0x00, 0x00,
  0x03, 0x00, 0x00, 0x00, 0x00, 0x00, 0x0e, 0x00, 0x16, 0x00, 0x00, 0x00,
  0x10, 0x00, 0x0c, 0x00, 0x0b, 0x00, 0x04, 0x00, 0x0e, 0x00, 0x00, 0x00,
  0x18, 0x00, 0x00, 0x00, 0x00, 0x00, 0x00, 0x08, 0x18, 0x00, 0x00, 0x00,
  0x1c, 0x00, 0x00, 0x00, 0x00, 0x00, 0x06, 0x00, 0x08, 0x00, 0x07, 0x00,
  0x06, 0x00, 0x00, 0x00, 0x00, 0x00, 0x00, 0x01, 0x01, 0x00, 0x00, 0x00,
  0x07, 0x00, 0x00, 0x00, 0x03, 0x00, 0x00, 0x00, 0x00, 0x00, 0x00, 0x00,
  0x06, 0x00, 0x00, 0x00, 0x05, 0x00, 0x00, 0x00, 0x01, 0x00, 0x00, 0x00,
  0x09, 0x00, 0x00, 0x00, 0x01, 0x00, 0x00, 0x00, 0x00, 0x00, 0x00, 0x00,
  0x0a, 0x00, 0x00, 0x00, 0xbc, 0x03, 0x00, 0x00, 0x64, 0x03, 0x00, 0x00,
  0x0c, 0x03, 0x00, 0x00, 0xac, 0x02, 0x00, 0x00, 0x50, 0x02, 0x00, 0x00,
  0xf4, 0x01, 0x00, 0x00, 0xa4, 0x01, 0x00, 0x00, 0x04, 0x01, 0x00, 0x00,
  0x60, 0x00, 0x00, 0x00, 0x04, 0x00, 0x00, 0x00, 0x82, 0xfc, 0xff, 0xff,
  0x00, 0x00, 0x00, 0x01, 0x14, 0x00, 0x00, 0x00, 0x1c, 0x00, 0x00, 0x00,
  0x1c, 0x00, 0x00, 0x00, 0x0a, 0x00, 0x00, 0x00, 0x34, 0x00, 0x00, 0x00,
  0x02, 0x00, 0x00, 0x00, 0xff, 0xff, 0xff, 0xff, 0x01, 0x00, 0x00, 0x00,
  0x6c, 0xfc, 0xff, 0xff, 0x1b, 0x00, 0x00, 0x00, 0x53, 0x74, 0x61, 0x74,
  0x65, 0x66, 0x75, 0x6c, 0x50, 0x61, 0x72, 0x74, 0x69, 0x74, 0x69, 0x6f,
  0x6e, 0x65, 0x64, 0x43, 0x61, 0x6c, 0x6c, 0x5f, 0x31, 0x3a, 0x30, 0x00,
  0x02, 0x00, 0x00, 0x00, 0x01, 0x00, 0x00, 0x00, 0x01, 0x00, 0x00, 0x00,
  0xda, 0xfc, 0xff, 0xff, 0x00, 0x00, 0x00, 0x01, 0x14, 0x00, 0x00, 0x00,
  0x1c, 0x00, 0x00, 0x00, 0x1c, 0x00, 0x00, 0x00, 0x09, 0x00, 0x00, 0x00,
  0x7c, 0x00, 0x00, 0x00, 0x02, 0x00, 0x00, 0x00, 0xff, 0xff, 0xff, 0xff,
  0x08, 0x00, 0x00, 0x00, 0xc4, 0xfc, 0xff, 0xff, 0x61, 0x00, 0x00, 0x00,
  0x73, 0x65, 0x71, 0x75, 0x65, 0x6e, 0x74, 0x69, 0x61, 0x6c, 0x5f, 0x33,
  0x5f, 0x31, 0x2f, 0x64, 0x65, 0x6e, 0x73, 0x65, 0x5f, 0x31, 0x30, 0x5f,
  0x31, 0x2f, 0x4d, 0x61, 0x74, 0x4d, 0x75, 0x6c, 0x3b, 0x73, 0x65, 0x71,
  0x75, 0x65, 0x6e, 0x74, 0x69, 0x61, 0x6c, 0x5f, 0x33, 0x5f, 0x31, 0x2f,
  0x64, 0x65, 0x6e, 0x73, 0x65, 0x5f, 0x31, 0x30, 0x5f, 0x31, 0x2f, 0x52,
  0x65, 0x6c, 0x75, 0x3b, 0x73, 0x65, 0x71, 0x75, 0x65, 0x6e, 0x74, 0x69,
  0x61, 0x6c, 0x5f, 0x33, 0x5f, 0x31, 0x2f, 0x64, 0x65, 0x6e, 0x73, 0x65,
  0x5f, 0x31, 0x30, 0x5f, 0x31, 0x2f, 0x42, 0x69, 0x61, 0x73, 0x41, 0x64,
  0x64, 0x00, 0x00, 0x00, 0x02, 0x00, 0x00, 0x00, 0x01, 0x00, 0x00, 0x00,
  0x08, 0x00, 0x00, 0x00, 0x7a, 0xfd, 0xff, 0xff, 0x00, 0x00, 0x00, 0x01,
  0x14, 0x00, 0x00, 0x00, 0x1c, 0x00, 0x00, 0x00, 0x1c, 0x00, 0x00, 0x00,
  0x08, 0x00, 0x00, 0x00, 0x78, 0x00, 0x00, 0x00, 0x02, 0x00, 0x00, 0x00,
  0xff, 0xff, 0xff, 0xff, 0x10, 0x00, 0x00, 0x00, 0x64, 0xfd, 0xff, 0xff,
  0x5e, 0x00, 0x00, 0x00, 0x73, 0x65, 0x71, 0x75, 0x65, 0x6e, 0x74, 0x69,
  0x61, 0x6c, 0x5f, 0x33, 0x5f, 0x31, 0x2f, 0x64, 0x65, 0x6e, 0x73, 0x65,
  0x5f, 0x39, 0x5f, 0x31, 0x2f, 0x4d, 0x61, 0x74, 0x4d, 0x75, 0x6c, 0x3b,
  0x73, 0x65, 0x71, 0x75, 0x65, 0x6e, 0x74, 0x69, 0x61, 0x6c, 0x5f, 0x33,
  0x5f, 0x31, 0x2f, 0x64, 0x65, 0x6e, 0x73, 0x65, 0x5f, 0x39, 0x5f, 0x31,
  0x2f, 0x52, 0x65, 0x6c, 0x75, 0x3b, 0x73, 0x65, 0x71, 0x75, 0x65, 0x6e,
  0x74, 0x69, 0x61, 0x6c, 0x5f, 0x33, 0x5f, 0x31, 0x2f, 0x64, 0x65, 0x6e,
  0x73, 0x65, 0x5f, 0x39, 0x5f, 0x31, 0x2f, 0x42, 0x69, 0x61, 0x73, 0x41,
  0x64, 0x64, 0x00, 0x00, 0x02, 0x00, 0x00, 0x00, 0x01, 0x00, 0x00, 0x00,
  0x10, 0x00, 0x00, 0x00, 0x6a, 0xfe, 0xff, 0xff, 0x00, 0x00, 0x00, 0x01,
  0x10, 0x00, 0x00, 0x00, 0x10, 0x00, 0x00, 0x00, 0x07, 0x00, 0x00, 0x00,
  0x2c, 0x00, 0x00, 0x00, 0xf0, 0xfd, 0xff, 0xff, 0x1f, 0x00, 0x00, 0x00,
  0x73, 0x65, 0x71, 0x75, 0x65, 0x6e, 0x74, 0x69, 0x61, 0x6c, 0x5f, 0x33,
  0x5f, 0x31, 0x2f, 0x64, 0x65, 0x6e, 0x73, 0x65, 0x5f, 0x39, 0x5f, 0x31,
  0x2f, 0x4d, 0x61, 0x74, 0x4d, 0x75, 0x6c, 0x00, 0x02, 0x00, 0x00, 0x00,
  0x10, 0x00, 0x00, 0x00, 0x02, 0x00, 0x00, 0x00, 0xb6, 0xfe, 0xff, 0xff,
  0x00, 0x00, 0x00, 0x01, 0x10, 0x00, 0x00, 0x00, 0x10, 0x00, 0x00, 0x00,
  0x06, 0x00, 0x00, 0x00, 0x3c, 0x00, 0x00, 0x00, 0x3c, 0xfe, 0xff, 0xff,
  0x2f, 0x00, 0x00, 0x00, 0x73, 0x65, 0x71, 0x75, 0x65, 0x6e, 0x74, 0x69,
  0x61, 0x6c, 0x5f, 0x33, 0x5f, 0x31, 0x2f, 0x64, 0x65, 0x6e, 0x73, 0x65,
  0x5f, 0x39, 0x5f, 0x31, 0x2f, 0x42, 0x69, 0x61, 0x73, 0x41, 0x64, 0x64,
  0x2f, 0x52, 0x65, 0x61, 0x64, 0x56, 0x61, 0x72, 0x69, 0x61, 0x62, 0x6c,
  0x65, 0x4f, 0x70, 0x00, 0x01, 0x00, 0x00, 0x00, 0x10, 0x00, 0x00, 0x00,
  0x0e, 0xff, 0xff, 0xff, 0x00, 0x00, 0x00, 0x01, 0x10, 0x00, 0x00, 0x00,
  0x10, 0x00, 0x00, 0x00, 0x05, 0x00, 0x00, 0x00, 0x3c, 0x00, 0x00, 0x00,
  0x94, 0xfe, 0xff, 0xff, 0x2c, 0x00, 0x00, 0x00, 0x73, 0x65, 0x71, 0x75,
  0x65, 0x6e, 0x74, 0x69, 0x61, 0x6c, 0x5f, 0x33, 0x5f, 0x31, 0x2f, 0x64,
  0x65, 0x6e, 0x73, 0x65, 0x5f, 0x31, 0x31, 0x5f, 0x31, 0x2f, 0x41, 0x64,
  0x64, 0x2f, 0x52, 0x65, 0x61, 0x64, 0x56, 0x61, 0x72, 0x69, 0x61, 0x62,
  0x6c, 0x65, 0x4f, 0x70, 0x00, 0x00, 0x00, 0x00, 0x01, 0x00, 0x00, 0x00,
  0x01, 0x00, 0x00, 0x00, 0x66, 0xff, 0xff, 0xff, 0x00, 0x00, 0x00, 0x01,
  0x10, 0x00, 0x00, 0x00, 0x10, 0x00, 0x00, 0x00, 0x04, 0x00, 0x00, 0x00,
  0x40, 0x00, 0x00, 0x00, 0xec, 0xfe, 0xff, 0xff, 0x30, 0x00, 0x00, 0x00,
  0x73, 0x65, 0x71, 0x75, 0x65, 0x6e, 0x74, 0x69, 0x61, 0x6c, 0x5f, 0x33,
  0x5f, 0x31, 0x2f, 0x64, 0x65, 0x6e, 0x73, 0x65, 0x5f, 0x31, 0x30, 0x5f,
  0x31, 0x2f, 0x42, 0x69, 0x61, 0x73, 0x41, 0x64, 0x64, 0x2f, 0x52, 0x65,
  0x61, 0x64, 0x56, 0x61, 0x72, 0x69, 0x61, 0x62, 0x6c, 0x65, 0x4f, 0x70,
  0x00, 0x00, 0x00, 0x00, 0x01, 0x00, 0x00, 0x00, 0x08, 0x00, 0x00, 0x00,
  0xc2, 0xff, 0xff, 0xff, 0x00, 0x00, 0x00, 0x01, 0x10, 0x00, 0x00, 0x00,
  0x10, 0x00, 0x00, 0x00, 0x03, 0x00, 0x00, 0x00, 0x1c, 0x00, 0x00, 0x00,
  0x48, 0xff, 0xff, 0xff, 0x0f, 0x00, 0x00, 0x00, 0x61, 0x72, 0x69, 0x74,
  0x68, 0x2e, 0x63, 0x6f, 0x6e, 0x73, 0x74, 0x61, 0x6e, 0x74, 0x31, 0x00,
  0x02, 0x00, 0x00, 0x00, 0x08, 0x00, 0x00, 0x00, 0x10, 0x00, 0x00, 0x00,
  0x00, 0x00, 0x16, 0x00, 0x18, 0x00, 0x14, 0x00, 0x00, 0x00, 0x10, 0x00,
  0x0c, 0x00, 0x08, 0x00, 0x00, 0x00, 0x00, 0x00, 0x00, 0x00, 0x07, 0x00,
  0x16, 0x00, 0x00, 0x00, 0x00, 0x00, 0x00, 0x01, 0x10, 0x00, 0x00, 0x00,
  0x10, 0x00, 0x00, 0x00, 0x02, 0x00, 0x00, 0x00, 0x1c, 0x00, 0x00, 0x00,
  0x9c, 0xff, 0xff, 0xff, 0x0e, 0x00, 0x00, 0x00, 0x61, 0x72, 0x69, 0x74,
  0x68, 0x2e, 0x63, 0x6f, 0x6e, 0x73, 0x74, 0x61, 0x6e, 0x74, 0x00, 0x00,
  0x02, 0x00, 0x00, 0x00, 0x01, 0x00, 0x00, 0x00, 0x08, 0x00, 0x00, 0x00,
  0x00, 0x00, 0x16, 0x00, 0x1c, 0x00, 0x18, 0x00, 0x00, 0x00, 0x14, 0x00,
  0x10, 0x00, 0x0c, 0x00, 0x00, 0x00, 0x00, 0x00, 0x08, 0x00, 0x07, 0x00,
  0x16, 0x00, 0x00, 0x00, 0x00, 0x00, 0x00, 0x01, 0x14, 0x00, 0x00, 0x00,
  0x20, 0x00, 0x00, 0x00, 0x20, 0x00, 0x00, 0x00, 0x01, 0x00, 0x00, 0x00,
  0x3c, 0x00, 0x00, 0x00, 0x02, 0x00, 0x00, 0x00, 0xff, 0xff, 0xff, 0xff,
  0x02, 0x00, 0x00, 0x00, 0x04, 0x00, 0x04, 0x00, 0x04, 0x00, 0x00, 0x00,
  0x1f, 0x00, 0x00, 0x00, 0x73, 0x65, 0x72, 0x76, 0x69, 0x6e, 0x67, 0x5f,
  0x64, 0x65, 0x66, 0x61, 0x75, 0x6c, 0x74, 0x5f, 0x69, 0x6e, 0x70, 0x75,
  0x74, 0x5f, 0x6c, 0x61, 0x79, 0x65, 0x72, 0x5f, 0x33, 0x3a, 0x30, 0x00,
  0x02, 0x00, 0x00, 0x00, 0x01, 0x00, 0x00, 0x00, 0x02, 0x00, 0x00, 0x00,
  0x01, 0x00, 0x00, 0x00, 0x10, 0x00, 0x00, 0x00, 0x0c, 0x00, 0x0c, 0x00,
  0x0b, 0x00, 0x00, 0x00, 0x00, 0x00, 0x04, 0x00, 0x0c, 0x00, 0x00, 0x00,
  0x09, 0x00, 0x00, 0x00, 0x00, 0x00, 0x00, 0x09
};
unsigned int mlp_soc_model_lfp_tflite_len = 2720;
